#ifndef GAS_MODEL_H
#define GAS_MODEL_H


unsigned int gas_model_len = 4032;
unsigned char gas_model[] = {
 0x1c, 0x00, 0x00, 0x00, 0x54, 0x46, 0x4c, 0x33, 0x14, 0x00, 0x20, 0x00,
  0x1c, 0x00, 0x18, 0x00, 0x14, 0x00, 0x10, 0x00, 0x0c, 0x00, 0x00, 0x00,
  0x08, 0x00, 0x04, 0x00, 0x14, 0x00, 0x00, 0x00, 0x1c, 0x00, 0x00, 0x00,
  0x84, 0x00, 0x00, 0x00, 0xdc, 0x00, 0x00, 0x00, 0xac, 0x09, 0x00, 0x00,
  0xbc, 0x09, 0x00, 0x00, 0x5c, 0x0f, 0x00, 0x00, 0x03, 0x00, 0x00, 0x00,
  0x01, 0x00, 0x00, 0x00, 0x04, 0x00, 0x00, 0x00, 0x06, 0xf6, 0xff, 0xff,
  0x0c, 0x00, 0x00, 0x00, 0x1c, 0x00, 0x00, 0x00, 0x38, 0x00, 0x00, 0x00,
  0x0f, 0x00, 0x00, 0x00, 0x73, 0x65, 0x72, 0x76, 0x69, 0x6e, 0x67, 0x5f,
  0x64, 0x65, 0x66, 0x61, 0x75, 0x6c, 0x74, 0x00, 0x01, 0x00, 0x00, 0x00,
  0x04, 0x00, 0x00, 0x00, 0x98, 0xff, 0xff, 0xff, 0x0a, 0x00, 0x00, 0x00,
  0x04, 0x00, 0x00, 0x00, 0x07, 0x00, 0x00, 0x00, 0x64, 0x65, 0x6e, 0x73,
  0x65, 0x5f, 0x32, 0x00, 0x01, 0x00, 0x00, 0x00, 0x04, 0x00, 0x00, 0x00,
  0x52, 0xf7, 0xff, 0xff, 0x04, 0x00, 0x00, 0x00, 0x0b, 0x00, 0x00, 0x00,
  0x64, 0x65, 0x6e, 0x73, 0x65, 0x5f, 0x69, 0x6e, 0x70, 0x75, 0x74, 0x00,
  0x02, 0x00, 0x00, 0x00, 0x34, 0x00, 0x00, 0x00, 0x04, 0x00, 0x00, 0x00,
  0xdc, 0xff, 0xff, 0xff, 0x0d, 0x00, 0x00, 0x00, 0x04, 0x00, 0x00, 0x00,
  0x13, 0x00, 0x00, 0x00, 0x43, 0x4f, 0x4e, 0x56, 0x45, 0x52, 0x53, 0x49,
  0x4f, 0x4e, 0x5f, 0x4d, 0x45, 0x54, 0x41, 0x44, 0x41, 0x54, 0x41, 0x00,
  0x08, 0x00, 0x0c, 0x00, 0x08, 0x00, 0x04, 0x00, 0x08, 0x00, 0x00, 0x00,
  0x0c, 0x00, 0x00, 0x00, 0x04, 0x00, 0x00, 0x00, 0x13, 0x00, 0x00, 0x00,
  0x6d, 0x69, 0x6e, 0x5f, 0x72, 0x75, 0x6e, 0x74, 0x69, 0x6d, 0x65, 0x5f,
  0x76, 0x65, 0x72, 0x73, 0x69, 0x6f, 0x6e, 0x00, 0x0e, 0x00, 0x00, 0x00,
  0xcc, 0x08, 0x00, 0x00, 0xc4, 0x08, 0x00, 0x00, 0x34, 0x08, 0x00, 0x00,
  0x08, 0x08, 0x00, 0x00, 0xd8, 0x07, 0x00, 0x00, 0x48, 0x07, 0x00, 0x00,
  0x38, 0x03, 0x00, 0x00, 0xa8, 0x00, 0x00, 0x00, 0xa0, 0x00, 0x00, 0x00,
  0x98, 0x00, 0x00, 0x00, 0x90, 0x00, 0x00, 0x00, 0x88, 0x00, 0x00, 0x00,
  0x68, 0x00, 0x00, 0x00, 0x04, 0x00, 0x00, 0x00, 0x02, 0xf8, 0xff, 0xff,
  0x04, 0x00, 0x00, 0x00, 0x54, 0x00, 0x00, 0x00, 0x0c, 0x00, 0x00, 0x00,
  0x08, 0x00, 0x0e, 0x00, 0x08, 0x00, 0x04, 0x00, 0x08, 0x00, 0x00, 0x00,
  0x10, 0x00, 0x00, 0x00, 0x24, 0x00, 0x00, 0x00, 0x00, 0x00, 0x06, 0x00,
  0x08, 0x00, 0x04, 0x00, 0x06, 0x00, 0x00, 0x00, 0x04, 0x00, 0x00, 0x00,
  0x00, 0x00, 0x00, 0x00, 0x00, 0x00, 0x0a, 0x00, 0x10, 0x00, 0x0c, 0x00,
  0x08, 0x00, 0x04, 0x00, 0x0a, 0x00, 0x00, 0x00, 0x02, 0x00, 0x00, 0x00,
  0x02, 0x00, 0x00, 0x00, 0x04, 0x00, 0x00, 0x00, 0x06, 0x00, 0x00, 0x00,
  0x32, 0x2e, 0x31, 0x35, 0x2e, 0x30, 0x00, 0x00, 0x62, 0xf8, 0xff, 0xff,
  0x04, 0x00, 0x00, 0x00, 0x10, 0x00, 0x00, 0x00, 0x31, 0x2e, 0x31, 0x34,
  0x2e, 0x30, 0x00, 0x00, 0x00, 0x00, 0x00, 0x00, 0x00, 0x00, 0x00, 0x00,
  0x64, 0xf2, 0xff, 0xff, 0x68, 0xf2, 0xff, 0xff, 0x6c, 0xf2, 0xff, 0xff,
  0x70, 0xf2, 0xff, 0xff, 0x8e, 0xf8, 0xff, 0xff, 0x04, 0x00, 0x00, 0x00,
  0x80, 0x02, 0x00, 0x00, 0xc6, 0xbd, 0xae, 0x3d, 0xe8, 0xca, 0x20, 0x41,
  0xa0, 0xbf, 0x1c, 0xbe, 0x18, 0x45, 0x6b, 0x3e, 0xd4, 0x7c, 0x01, 0x40,
  0xf9, 0x62, 0x3b, 0x3e, 0x3a, 0x31, 0xc3, 0x3f, 0x2c, 0x29, 0xe7, 0x3c,
  0xb7, 0xa0, 0xb7, 0xbe, 0x99, 0xa8, 0xff, 0xbf, 0x7f, 0x30, 0xc0, 0xbc,
  0xe7, 0x9a, 0x4f, 0xbe, 0x41, 0x0d, 0x63, 0xbf, 0xc9, 0x85, 0x05, 0xc0,
  0xf8, 0x20, 0x2c, 0xc0, 0xc8, 0xd1, 0x44, 0x3e, 0xf8, 0x43, 0x92, 0x3f,
  0xb0, 0xf3, 0x4e, 0x3f, 0x69, 0x29, 0xd9, 0xbf, 0x8d, 0x71, 0xea, 0x3f,
  0x9a, 0x96, 0xce, 0x3f, 0xff, 0x4a, 0x27, 0xbf, 0x37, 0xb1, 0xdf, 0xbe,
  0xd0, 0xc3, 0x04, 0x3e, 0x6d, 0x13, 0x06, 0xc0, 0x86, 0xb2, 0xac, 0xbe,
  0x52, 0xfc, 0x47, 0xbf, 0x2b, 0xf1, 0x0e, 0xc0, 0xb3, 0xf1, 0xa1, 0x3b,
  0x4b, 0xa2, 0xb5, 0xbf, 0x38, 0xb5, 0x90, 0x3f, 0x3b, 0x8b, 0x41, 0xbe,
  0x27, 0xbc, 0x3e, 0xc1, 0x48, 0xf7, 0x34, 0xc1, 0xb2, 0xaa, 0x24, 0xbe,
  0x9a, 0xb2, 0xba, 0xbe, 0x3b, 0xdc, 0xef, 0xbd, 0xd7, 0xce, 0x8e, 0x3e,
  0xc6, 0x29, 0xdb, 0xbf, 0x37, 0x6e, 0x38, 0xc1, 0x2f, 0x83, 0xb1, 0xbe,
  0xba, 0x25, 0x77, 0x3e, 0xa2, 0xba, 0x45, 0x3e, 0x50, 0xed, 0x88, 0x3e,
  0xaa, 0x00, 0x47, 0xbe, 0x3a, 0x0e, 0x82, 0xbe, 0xc7, 0x4f, 0x17, 0x3f,
  0x6c, 0x64, 0x8a, 0x3e, 0xc9, 0x63, 0x00, 0xbe, 0xfb, 0x76, 0x97, 0xbe,
  0x69, 0xfb, 0x21, 0x3f, 0xed, 0xc9, 0x51, 0x3f, 0x22, 0xe9, 0x79, 0xbe,
  0xc3, 0x28, 0x85, 0xbe, 0x2b, 0x77, 0x8e, 0xbd, 0x8b, 0x8a, 0x79, 0xbe,
  0x77, 0x72, 0x47, 0x3f, 0x29, 0xf0, 0x9b, 0xbe, 0x7a, 0xe7, 0x16, 0xbf,
  0x71, 0x35, 0x62, 0xbf, 0x15, 0x62, 0x48, 0xc1, 0xd0, 0x3a, 0x2b, 0x3f,
  0xa3, 0x11, 0xa1, 0xbb, 0xaa, 0x8c, 0xcf, 0x3e, 0x2c, 0x85, 0x22, 0x3c,
  0xb1, 0xa1, 0xfa, 0xbc, 0xa7, 0xa8, 0x86, 0x3e, 0xd0, 0x77, 0x65, 0xbe,
  0x8f, 0x26, 0x18, 0x40, 0xc8, 0x0d, 0x28, 0x3e, 0xd3, 0xbe, 0x8a, 0x3e,
  0x53, 0x0d, 0x11, 0x41, 0x75, 0xd6, 0xcb, 0x3e, 0x1b, 0x5f, 0xf9, 0xbf,
  0xed, 0xac, 0x69, 0xbd, 0x7b, 0xd4, 0x20, 0xbe, 0xd2, 0x3d, 0x1e, 0x3f,
  0x1f, 0x30, 0x43, 0x3f, 0xa4, 0x49, 0x86, 0xbd, 0x04, 0xae, 0x8c, 0xbd,
  0x92, 0x3b, 0x5e, 0xbd, 0xb9, 0x69, 0xe7, 0xbc, 0x25, 0x08, 0x36, 0xc0,
  0x04, 0xfe, 0x94, 0xbe, 0x72, 0x77, 0xae, 0xbe, 0x35, 0x69, 0x65, 0x3f,
  0x89, 0xb2, 0x55, 0xc0, 0x1f, 0x0c, 0x09, 0x40, 0x5a, 0x19, 0xd3, 0x3f,
  0x58, 0xf9, 0x83, 0x3f, 0x10, 0x22, 0x53, 0xc0, 0x82, 0x0b, 0xa1, 0x3f,
  0xaf, 0x30, 0xdb, 0xbc, 0x1b, 0xa1, 0xcd, 0xbf, 0x03, 0xa3, 0x0c, 0xc0,
  0x95, 0x77, 0xb5, 0xbf, 0x6e, 0x03, 0x0f, 0x3d, 0x2e, 0x2b, 0x5e, 0x3d,
  0x48, 0xaf, 0xd8, 0x3d, 0x7c, 0x1c, 0xc6, 0x3e, 0x28, 0xfa, 0x88, 0xbe,
  0x02, 0xd1, 0x88, 0x3e, 0xfa, 0x45, 0x18, 0xc0, 0xe2, 0x64, 0xd1, 0x3d,
  0xf3, 0xba, 0xc3, 0x3e, 0xb5, 0x47, 0xb1, 0xbf, 0xd2, 0x2f, 0x63, 0x3e,
  0xac, 0x5c, 0x2b, 0x3e, 0xe3, 0x19, 0x40, 0xc0, 0xe5, 0x84, 0xff, 0x3f,
  0x85, 0x50, 0x13, 0xc0, 0xf7, 0xd0, 0x15, 0x3e, 0x06, 0xce, 0x04, 0x40,
  0x1b, 0x1b, 0x98, 0x3e, 0x0f, 0xe9, 0xb3, 0xbf, 0x74, 0xd2, 0xd9, 0xbf,
  0xe4, 0x00, 0xf9, 0x3f, 0x45, 0xfe, 0x46, 0xbe, 0x6a, 0xb7, 0xa5, 0xbf,
  0xff, 0x00, 0x8c, 0x3f, 0x2c, 0xd3, 0xc4, 0xbf, 0x67, 0xca, 0x0e, 0x40,
  0xe6, 0x32, 0xab, 0x3f, 0x1b, 0xe8, 0x9b, 0x3f, 0x65, 0x37, 0x1c, 0x41,
  0x9f, 0xe9, 0x04, 0x3f, 0x65, 0x10, 0x1c, 0xc0, 0x89, 0x20, 0x78, 0x3f,
  0xfb, 0x43, 0x17, 0x41, 0xb2, 0x60, 0x9c, 0x3d, 0xb8, 0x3c, 0x50, 0x3e,
  0x30, 0x31, 0xa3, 0xbe, 0x71, 0x4c, 0xa3, 0xbd, 0x20, 0x4c, 0x25, 0x3d,
  0x92, 0xbf, 0x38, 0x3e, 0xdd, 0x88, 0x50, 0x3d, 0xf6, 0x0b, 0x86, 0xbe,
  0xe6, 0xc6, 0x43, 0x3e, 0x21, 0xfb, 0x07, 0x3e, 0x9b, 0xd4, 0x03, 0x3e,
  0xa4, 0x36, 0x18, 0xc0, 0x97, 0xae, 0xe2, 0x3f, 0xed, 0x4d, 0x1d, 0x3f,
  0x3b, 0x47, 0x52, 0x3d, 0xc8, 0x23, 0xb8, 0xbc, 0x88, 0x1a, 0x6c, 0xc0,
  0x8a, 0x03, 0x64, 0xbf, 0x0d, 0xd0, 0xc5, 0x3f, 0xcc, 0x41, 0x1d, 0x40,
  0x4d, 0xc8, 0xd3, 0x3f, 0x7c, 0xd6, 0xe3, 0xbf, 0x39, 0x5b, 0x3b, 0xbf,
  0xb9, 0xc3, 0xaa, 0xbf, 0xb2, 0x74, 0xc3, 0xbc, 0x25, 0x68, 0x12, 0x3f,
  0x1e, 0xf6, 0x26, 0x3f, 0x8c, 0x99, 0x5a, 0xbc, 0x9c, 0x93, 0x35, 0xc0,
  0x61, 0x47, 0xc3, 0xbf, 0x43, 0xc7, 0x31, 0xc0, 0x1a, 0xfb, 0xff, 0xff,
  0x04, 0x00, 0x00, 0x00, 0x00, 0x04, 0x00, 0x00, 0x56, 0x7f, 0x34, 0x40,
  0x36, 0x98, 0x4b, 0xc0, 0xe4, 0xc0, 0xe0, 0xbf, 0x24, 0x0f, 0x0a, 0xbf,
  0x9f, 0x99, 0x8a, 0xbe, 0x1e, 0x1c, 0x7e, 0x3f, 0x1a, 0xdd, 0x2e, 0x3f,
  0xd5, 0x21, 0x10, 0x3f, 0x56, 0xae, 0xbc, 0x3e, 0x54, 0x3d, 0x00, 0xc0,
  0x4b, 0xc0, 0xeb, 0x3f, 0xe1, 0xca, 0x60, 0xc0, 0xaf, 0xbb, 0x03, 0xc0,
  0x40, 0x96, 0x75, 0x3f, 0x43, 0x71, 0xbe, 0x3f, 0x55, 0xe1, 0x27, 0xc0,
  0x8a, 0xd2, 0x50, 0xbe, 0x2b, 0x0d, 0x7f, 0x3e, 0xc2, 0x17, 0xd8, 0xbe,
  0xe6, 0x35, 0x06, 0x3e, 0x39, 0xb9, 0x78, 0xbc, 0xd8, 0xce, 0xa2, 0x3e,
  0x07, 0xea, 0xaa, 0xbe, 0x54, 0xd7, 0x90, 0xbe, 0xd0, 0x6b, 0x16, 0x3d,
  0x3c, 0x78, 0x71, 0x3e, 0xb1, 0x86, 0x92, 0xbe, 0x74, 0x5f, 0x51, 0xbe,
  0x5a, 0x57, 0xae, 0xbe, 0xac, 0xc2, 0xe6, 0xbd, 0xd4, 0x99, 0xb1, 0xbd,
  0xe4, 0xed, 0xc3, 0xbd, 0x93, 0xba, 0x1a, 0xbe, 0x78, 0x6b, 0x69, 0x3f,
  0xfd, 0x83, 0xbe, 0x3f, 0x62, 0x14, 0xc4, 0xbf, 0x9f, 0x31, 0xf8, 0xbf,
  0x91, 0x2f, 0x19, 0x3f, 0x13, 0x69, 0x92, 0xbe, 0xd7, 0x77, 0x49, 0x3f,
  0xdc, 0x22, 0xd7, 0x3d, 0xd1, 0x9d, 0x6b, 0xbd, 0x7a, 0xf8, 0xb6, 0xbe,
  0xbf, 0xcc, 0x98, 0xbe, 0xf9, 0xd3, 0x5e, 0x3d, 0x80, 0x3e, 0x58, 0x3e,
  0xe4, 0x33, 0x09, 0xbd, 0xe2, 0x50, 0xa2, 0xbe, 0x75, 0x7c, 0xe8, 0xbf,
  0x57, 0x27, 0xa2, 0x3d, 0x42, 0x51, 0xa8, 0x3d, 0x58, 0x60, 0x9d, 0xbf,
  0xed, 0xa4, 0x5b, 0x3f, 0xc7, 0x54, 0xc0, 0x3f, 0x83, 0x67, 0x78, 0x3e,
  0xcd, 0x51, 0xc9, 0x3f, 0xfc, 0x47, 0x19, 0x40, 0xd4, 0x27, 0xf9, 0x3e,
  0xb6, 0xbd, 0xaf, 0x3e, 0xd1, 0xe2, 0xa4, 0xbf, 0x05, 0xb3, 0x79, 0xc0,
  0xe2, 0x5a, 0x74, 0x3f, 0xfc, 0x5f, 0x1f, 0xc0, 0xbf, 0xaa, 0xb0, 0x3f,
  0x98, 0xde, 0x58, 0xbe, 0xf0, 0x9a, 0x9e, 0x3d, 0xa2, 0xf2, 0x0b, 0xbe,
  0xc0, 0x2b, 0x39, 0xbc, 0x7f, 0x9b, 0xba, 0xbe, 0x3c, 0x0c, 0x3f, 0x3d,
  0xaa, 0xd7, 0x9c, 0x3d, 0xac, 0x3b, 0x61, 0xbe, 0x76, 0xc7, 0x86, 0xbf,
  0x07, 0xab, 0x0b, 0x3f, 0x5a, 0x2a, 0x37, 0xbf, 0x6d, 0x17, 0x99, 0x3f,
  0x1f, 0x28, 0x0b, 0x40, 0xae, 0x33, 0x5d, 0x3e, 0x7b, 0x0d, 0xf7, 0x3e,
  0x73, 0xd6, 0x37, 0x3f, 0x22, 0xcb, 0x45, 0x3e, 0x5d, 0xb0, 0x67, 0x3e,
  0x33, 0xaa, 0x9b, 0xbe, 0x28, 0xf2, 0xad, 0xbd, 0xd6, 0x41, 0xc6, 0xbe,
  0xf1, 0x83, 0xab, 0xbd, 0x0c, 0xb5, 0xc0, 0xbd, 0x7b, 0x50, 0x99, 0xbe,
  0xb9, 0xe1, 0x04, 0xbe, 0x8f, 0x13, 0x4e, 0xbe, 0xe0, 0xc3, 0x27, 0x3e,
  0xc6, 0xb6, 0x06, 0xbf, 0xbe, 0x0b, 0xe7, 0xbe, 0x0e, 0x15, 0xd7, 0xbe,
  0xc9, 0xcf, 0xcf, 0x3d, 0xdf, 0x59, 0x66, 0xbe, 0x75, 0x70, 0xa2, 0xbf,
  0x2f, 0xbe, 0x0e, 0x40, 0x2d, 0x44, 0x00, 0x3f, 0xfb, 0xdf, 0x9e, 0xbe,
  0x5b, 0x23, 0x6b, 0x3f, 0xd5, 0xaf, 0x44, 0x3f, 0x6f, 0x88, 0x2a, 0xbf,
  0xfa, 0x6e, 0x76, 0x3f, 0x5d, 0x6d, 0xc9, 0x3f, 0xb2, 0x45, 0x4b, 0xbf,
  0x15, 0xe4, 0xb5, 0xbe, 0xaf, 0x8b, 0xf6, 0x3f, 0xe7, 0x67, 0x75, 0x3e,
  0x51, 0xa4, 0x03, 0xbf, 0xc7, 0x5d, 0x60, 0xbb, 0xc2, 0x6c, 0xb6, 0x3f,
  0x56, 0xa2, 0xea, 0xbe, 0x9e, 0xfc, 0x96, 0x3f, 0xdd, 0xe5, 0x8d, 0xbf,
  0x80, 0x33, 0x3d, 0x3f, 0x8f, 0x0d, 0xf5, 0x3f, 0x2d, 0xde, 0x95, 0x3f,
  0x8a, 0xe1, 0x9a, 0xbe, 0xc3, 0x4f, 0x01, 0x40, 0x45, 0x97, 0xe9, 0x3c,
  0x9b, 0x2c, 0xb0, 0xbe, 0x00, 0x93, 0xeb, 0xbc, 0x3a, 0x24, 0xc8, 0xbd,
  0x18, 0xb7, 0x7d, 0x3d, 0x1d, 0x45, 0x8f, 0xbd, 0xe7, 0xa9, 0x82, 0xbe,
  0xe4, 0x29, 0x1c, 0x3e, 0xdc, 0x86, 0xfc, 0x3e, 0xe9, 0x16, 0x5a, 0xbd,
  0x61, 0xad, 0xc1, 0x3f, 0xaf, 0x6a, 0x21, 0x3f, 0xf1, 0xa5, 0x5e, 0xbf,
  0x47, 0x69, 0xa1, 0xbf, 0xee, 0xed, 0x9c, 0x3f, 0x87, 0x6d, 0xac, 0xbf,
  0xbf, 0xa3, 0x98, 0xbf, 0x30, 0x8e, 0xfc, 0x3f, 0xc2, 0xc4, 0xd0, 0x3f,
  0x29, 0x82, 0x2c, 0x3f, 0xf4, 0x15, 0x85, 0x3d, 0x13, 0x7d, 0x76, 0xbe,
  0x69, 0xbb, 0x9d, 0xbe, 0xf1, 0xac, 0x4f, 0xbf, 0x3f, 0x67, 0x94, 0xbf,
  0xfa, 0xaf, 0x74, 0x3f, 0x4a, 0xc9, 0xc4, 0xbe, 0x10, 0xe6, 0x3b, 0x3f,
  0xf1, 0x31, 0x15, 0x40, 0x47, 0x25, 0xb0, 0xbe, 0xa4, 0x93, 0x04, 0x3f,
  0x25, 0xaf, 0xbf, 0x3e, 0x3b, 0xa4, 0x08, 0x3f, 0xe6, 0x67, 0x38, 0xbf,
  0x4b, 0x86, 0xa0, 0x3e, 0x19, 0x03, 0xd4, 0xbf, 0x06, 0x93, 0x8e, 0x3f,
  0x97, 0x96, 0x0d, 0x40, 0x70, 0xea, 0x05, 0x40, 0x8b, 0xcd, 0x79, 0x3f,
  0xed, 0xda, 0xd0, 0x3f, 0x63, 0xa9, 0x0a, 0xc0, 0x23, 0x8b, 0x89, 0x3e,
  0xe0, 0x62, 0x41, 0x3f, 0x32, 0xaa, 0xd9, 0x3e, 0x33, 0xd5, 0x6c, 0x3d,
  0xa6, 0x78, 0xec, 0x3f, 0x28, 0xac, 0xa4, 0xbe, 0xf0, 0xf8, 0x77, 0x3f,
  0x39, 0xa1, 0x8f, 0x3e, 0xaf, 0xe5, 0x52, 0xbf, 0x31, 0xdc, 0x8f, 0x3e,
  0x96, 0xc2, 0xf2, 0x3d, 0xfa, 0x86, 0x8a, 0x3f, 0x85, 0xcb, 0x4d, 0xbf,
  0x80, 0x35, 0xbe, 0x3f, 0xe9, 0xff, 0xd4, 0xbf, 0x71, 0xeb, 0x86, 0x3f,
  0x95, 0x0c, 0x4f, 0x3e, 0xd8, 0x1b, 0x21, 0x3f, 0xeb, 0x01, 0x13, 0x40,
  0xb4, 0x10, 0x9c, 0xbe, 0xcd, 0xa3, 0x6d, 0x3f, 0x2c, 0x39, 0x0a, 0xbf,
  0x91, 0x20, 0x94, 0x3f, 0xfb, 0xc5, 0x8f, 0x3f, 0x9d, 0xb8, 0xc2, 0x3f,
  0x04, 0xb2, 0x9c, 0x3f, 0xcb, 0xd4, 0xdb, 0xbf, 0x01, 0x58, 0xa6, 0x3e,
  0xc9, 0x0a, 0x8f, 0xbf, 0x8e, 0x13, 0x98, 0x3e, 0xf4, 0x60, 0xe8, 0xbe,
  0x26, 0x94, 0x1d, 0x40, 0xbe, 0xbe, 0x95, 0x3e, 0xa4, 0x7b, 0x32, 0x3f,
  0xfd, 0xd5, 0x00, 0x3f, 0x9a, 0x6e, 0x56, 0x3f, 0x9c, 0x57, 0xed, 0xbf,
  0x5f, 0xed, 0xe9, 0x3f, 0x95, 0x46, 0x87, 0x3f, 0x89, 0x1b, 0x94, 0x3f,
  0xe6, 0xfc, 0x25, 0x3f, 0xb2, 0x0f, 0x4b, 0x3f, 0x3f, 0x60, 0x6d, 0xbf,
  0xdb, 0x38, 0x83, 0xbf, 0x17, 0x80, 0x49, 0xbf, 0xe7, 0x54, 0x1c, 0x3f,
  0xa6, 0xc5, 0xb7, 0xbe, 0x9c, 0x31, 0x04, 0xbf, 0x10, 0x89, 0xda, 0xbd,
  0xc9, 0x2c, 0xee, 0x3f, 0x19, 0x45, 0x17, 0x40, 0xe6, 0x7b, 0x87, 0xbf,
  0x42, 0x60, 0xd2, 0x3f, 0xd9, 0x82, 0xd7, 0xbe, 0xfe, 0xab, 0x2b, 0x3f,
  0x38, 0x7d, 0xff, 0x3e, 0xef, 0x20, 0x00, 0xbf, 0xc5, 0x04, 0xe3, 0x3f,
  0x8e, 0x07, 0xe0, 0xbd, 0x6d, 0x39, 0x2d, 0xbe, 0x73, 0x7e, 0x0c, 0xbf,
  0x50, 0x86, 0xbf, 0x3f, 0x16, 0x80, 0x33, 0x40, 0xc5, 0xbd, 0x73, 0xbf,
  0xe4, 0x76, 0xef, 0x3e, 0x61, 0x7a, 0xac, 0x3f, 0x0c, 0xb0, 0xf7, 0xbf,
  0x1d, 0x80, 0x35, 0xc0, 0x31, 0xcf, 0xc4, 0x3e, 0xe6, 0x6c, 0x8c, 0xbf,
  0xe6, 0x56, 0x66, 0xbf, 0x65, 0x8f, 0xf1, 0x3f, 0x00, 0x58, 0xe6, 0x3e,
  0x21, 0xa4, 0xb5, 0x3f, 0x0c, 0x48, 0x8c, 0x3f, 0x79, 0x41, 0x7a, 0xbf,
  0x2a, 0x5d, 0x88, 0x3c, 0xb5, 0x89, 0xc4, 0xbd, 0x75, 0x95, 0xec, 0xbf,
  0xc8, 0x00, 0x8c, 0x3f, 0xaf, 0x7e, 0x41, 0x3f, 0x23, 0x69, 0x2b, 0xbf,
  0x22, 0xb8, 0xd1, 0x3f, 0x9d, 0x75, 0x26, 0x3f, 0xcc, 0x91, 0x85, 0x3f,
  0xc2, 0x4a, 0xb0, 0xbe, 0x36, 0x7c, 0x75, 0xbf, 0x49, 0x72, 0x9d, 0x3f,
  0xf7, 0xed, 0xa5, 0x3f, 0xf7, 0xc9, 0xbb, 0x3f, 0x7e, 0x58, 0x6a, 0x3f,
  0xd3, 0xf3, 0x85, 0xbf, 0x2e, 0xdf, 0x25, 0x3e, 0xc8, 0xf0, 0x3a, 0xbf,
  0x26, 0xff, 0xff, 0xff, 0x04, 0x00, 0x00, 0x00, 0x80, 0x00, 0x00, 0x00,
  0x73, 0xea, 0xd8, 0x3f, 0x5b, 0x60, 0xc1, 0x3f, 0x68, 0xcf, 0x90, 0x3e,
  0x3e, 0x2f, 0xed, 0x3f, 0x1a, 0xf4, 0x2f, 0xbe, 0x04, 0x00, 0x87, 0x3f,
  0x50, 0x62, 0xa5, 0xbe, 0xa0, 0x03, 0xad, 0xbf, 0xd1, 0x26, 0xe7, 0x3f,
  0x5f, 0x55, 0xc7, 0x3f, 0x2b, 0x91, 0x2d, 0x40, 0x8c, 0xd8, 0xbf, 0xbf,
  0x35, 0xd0, 0x04, 0x40, 0x57, 0xc7, 0x80, 0xbe, 0xb8, 0x44, 0xde, 0xbf,
  0xa4, 0x95, 0x1d, 0x3e, 0x7b, 0x0d, 0x14, 0xbf, 0x06, 0xd2, 0x9e, 0xbf,
  0xd8, 0x1c, 0xbc, 0xbe, 0x66, 0x88, 0x0a, 0x3f, 0xff, 0x77, 0xcb, 0xbf,
  0x86, 0x72, 0xb6, 0x3f, 0x93, 0xb1, 0x85, 0x3f, 0x36, 0xfd, 0xc9, 0x3f,
  0x57, 0x7f, 0x4f, 0x3f, 0xc6, 0x19, 0xcf, 0xbf, 0xbd, 0x09, 0xf3, 0x3f,
  0xfe, 0x78, 0xe8, 0x3f, 0x8e, 0x0c, 0x31, 0xbf, 0xa4, 0x37, 0xbc, 0x3f,
  0x34, 0x6d, 0x95, 0xbf, 0x75, 0x42, 0xa5, 0x3f, 0xb2, 0xff, 0xff, 0xff,
  0x04, 0x00, 0x00, 0x00, 0x20, 0x00, 0x00, 0x00, 0x55, 0xb3, 0xa2, 0xbf,
  0xfb, 0x40, 0xcd, 0x3f, 0xbc, 0xc4, 0x43, 0x3f, 0x70, 0x4a, 0xce, 0x3f,
  0x3a, 0x62, 0xf2, 0x3f, 0x15, 0xe5, 0x5e, 0x3f, 0xfd, 0x31, 0x6a, 0x3f,
  0xfd, 0x4a, 0xad, 0x3f, 0xde, 0xff, 0xff, 0xff, 0x04, 0x00, 0x00, 0x00,
  0x14, 0x00, 0x00, 0x00, 0xe3, 0x9d, 0xcb, 0xbd, 0x29, 0xdf, 0x64, 0x3e,
  0xd9, 0x49, 0xa0, 0xbe, 0x25, 0x24, 0xcd, 0xbe, 0x8e, 0x15, 0xc9, 0xbe,
  0x00, 0x00, 0x06, 0x00, 0x08, 0x00, 0x04, 0x00, 0x06, 0x00, 0x00, 0x00,
  0x04, 0x00, 0x00, 0x00, 0x80, 0x00, 0x00, 0x00, 0xcb, 0x81, 0xbb, 0xbf,
  0xd4, 0x87, 0xb9, 0xbe, 0xf7, 0x73, 0xca, 0xbc, 0x00, 0x00, 0x00, 0x00,
  0x43, 0x0e, 0x87, 0x3e, 0x75, 0x9b, 0x07, 0xbd, 0x2d, 0x52, 0xbd, 0x3e,
  0xb1, 0x46, 0x52, 0xbf, 0xb1, 0xa9, 0x62, 0xbc, 0x8f, 0x1a, 0x46, 0x3f,
  0x8b, 0xf5, 0xac, 0xbc, 0x28, 0x5e, 0xb5, 0xbd, 0x1e, 0x53, 0x2a, 0x3f,
  0x9c, 0x67, 0xaa, 0xbe, 0xec, 0x4b, 0x78, 0x3f, 0xed, 0xe1, 0x37, 0xbc,
  0x1f, 0xc4, 0x54, 0x3e, 0x97, 0x51, 0x5e, 0x3f, 0xa4, 0x1b, 0x96, 0x3f,
  0xe0, 0x48, 0x8e, 0x3e, 0x95, 0xb6, 0x0b, 0xbf, 0xd9, 0xb3, 0x6a, 0xbe,
  0xf0, 0x39, 0x86, 0x3f, 0xea, 0x4d, 0x09, 0x3f, 0x36, 0x90, 0x72, 0x3f,
  0x13, 0xfb, 0x10, 0xbe, 0x99, 0x14, 0x59, 0x3f, 0x32, 0x3c, 0x24, 0x3e,
  0xb1, 0x7d, 0x2b, 0xbf, 0xaa, 0x63, 0x80, 0x3f, 0xb2, 0x55, 0x65, 0x3f,
  0x22, 0x0b, 0x70, 0x3f, 0x78, 0xfa, 0xff, 0xff, 0x7c, 0xfa, 0xff, 0xff,
  0x0f, 0x00, 0x00, 0x00, 0x4d, 0x4c, 0x49, 0x52, 0x20, 0x43, 0x6f, 0x6e,
  0x76, 0x65, 0x72, 0x74, 0x65, 0x64, 0x2e, 0x00, 0x01, 0x00, 0x00, 0x00,
  0x14, 0x00, 0x00, 0x00, 0x00, 0x00, 0x0e, 0x00, 0x18, 0x00, 0x14, 0x00,
  0x10, 0x00, 0x0c, 0x00, 0x08, 0x00, 0x04, 0x00, 0x0e, 0x00, 0x00, 0x00,
  0x14, 0x00, 0x00, 0x00, 0x1c, 0x00, 0x00, 0x00, 0x08, 0x01, 0x00, 0x00,
  0x0c, 0x01, 0x00, 0x00, 0x10, 0x01, 0x00, 0x00, 0x04, 0x00, 0x00, 0x00,
  0x6d, 0x61, 0x69, 0x6e, 0x00, 0x00, 0x00, 0x00, 0x04, 0x00, 0x00, 0x00,
  0xb0, 0x00, 0x00, 0x00, 0x68, 0x00, 0x00, 0x00, 0x34, 0x00, 0x00, 0x00,
  0x10, 0x00, 0x00, 0x00, 0x00, 0x00, 0x0a, 0x00, 0x10, 0x00, 0x0c, 0x00,
  0x08, 0x00, 0x04, 0x00, 0x0a, 0x00, 0x00, 0x00, 0x0c, 0x00, 0x00, 0x00,
  0x10, 0x00, 0x00, 0x00, 0x01, 0x00, 0x00, 0x00, 0x01, 0x00, 0x00, 0x00,
  0x0a, 0x00, 0x00, 0x00, 0x01, 0x00, 0x00, 0x00, 0x09, 0x00, 0x00, 0x00,
  0x9a, 0xff, 0xff, 0xff, 0x10, 0x00, 0x00, 0x00, 0x00, 0x00, 0x00, 0x08,
  0x0c, 0x00, 0x00, 0x00, 0x10, 0x00, 0x00, 0x00, 0x24, 0xfb, 0xff, 0xff,
  0x01, 0x00, 0x00, 0x00, 0x09, 0x00, 0x00, 0x00, 0x03, 0x00, 0x00, 0x00,
  0x08, 0x00, 0x00, 0x00, 0x06, 0x00, 0x00, 0x00, 0x02, 0x00, 0x00, 0x00,
  0xca, 0xff, 0xff, 0xff, 0x10, 0x00, 0x00, 0x00, 0x00, 0x00, 0x00, 0x08,
  0x10, 0x00, 0x00, 0x00, 0x14, 0x00, 0x00, 0x00, 0xba, 0xff, 0xff, 0xff,
  0x00, 0x00, 0x00, 0x01, 0x01, 0x00, 0x00, 0x00, 0x08, 0x00, 0x00, 0x00,
  0x03, 0x00, 0x00, 0x00, 0x07, 0x00, 0x00, 0x00, 0x05, 0x00, 0x00, 0x00,
  0x01, 0x00, 0x00, 0x00, 0x00, 0x00, 0x0e, 0x00, 0x16, 0x00, 0x00, 0x00,
  0x10, 0x00, 0x0c, 0x00, 0x0b, 0x00, 0x04, 0x00, 0x0e, 0x00, 0x00, 0x00,
  0x18, 0x00, 0x00, 0x00, 0x00, 0x00, 0x00, 0x08, 0x18, 0x00, 0x00, 0x00,
  0x1c, 0x00, 0x00, 0x00, 0x00, 0x00, 0x06, 0x00, 0x08, 0x00, 0x07, 0x00,
  0x06, 0x00, 0x00, 0x00, 0x00, 0x00, 0x00, 0x01, 0x01, 0x00, 0x00, 0x00,
  0x07, 0x00, 0x00, 0x00, 0x03, 0x00, 0x00, 0x00, 0x00, 0x00, 0x00, 0x00,
  0x04, 0x00, 0x00, 0x00, 0x03, 0x00, 0x00, 0x00, 0x01, 0x00, 0x00, 0x00,
  0x0a, 0x00, 0x00, 0x00, 0x01, 0x00, 0x00, 0x00, 0x00, 0x00, 0x00, 0x00,
  0x0b, 0x00, 0x00, 0x00, 0x04, 0x04, 0x00, 0x00, 0x94, 0x03, 0x00, 0x00,
  0x24, 0x03, 0x00, 0x00, 0xd0, 0x02, 0x00, 0x00, 0x88, 0x02, 0x00, 0x00,
  0x3c, 0x02, 0x00, 0x00, 0xf0, 0x01, 0x00, 0x00, 0x68, 0x01, 0x00, 0x00,
  0xd8, 0x00, 0x00, 0x00, 0x60, 0x00, 0x00, 0x00, 0x04, 0x00, 0x00, 0x00,
  0x3e, 0xfc, 0xff, 0xff, 0x00, 0x00, 0x00, 0x01, 0x14, 0x00, 0x00, 0x00,
  0x1c, 0x00, 0x00, 0x00, 0x1c, 0x00, 0x00, 0x00, 0x0b, 0x00, 0x00, 0x00,
  0x34, 0x00, 0x00, 0x00, 0x02, 0x00, 0x00, 0x00, 0xff, 0xff, 0xff, 0xff,
  0x05, 0x00, 0x00, 0x00, 0x28, 0xfc, 0xff, 0xff, 0x19, 0x00, 0x00, 0x00,
  0x53, 0x74, 0x61, 0x74, 0x65, 0x66, 0x75, 0x6c, 0x50, 0x61, 0x72, 0x74,
  0x69, 0x74, 0x69, 0x6f, 0x6e, 0x65, 0x64, 0x43, 0x61, 0x6c, 0x6c, 0x3a,
  0x30, 0x00, 0x00, 0x00, 0x02, 0x00, 0x00, 0x00, 0x01, 0x00, 0x00, 0x00,
  0x05, 0x00, 0x00, 0x00, 0x96, 0xfc, 0xff, 0xff, 0x00, 0x00, 0x00, 0x01,
  0x14, 0x00, 0x00, 0x00, 0x1c, 0x00, 0x00, 0x00, 0x1c, 0x00, 0x00, 0x00,
  0x0a, 0x00, 0x00, 0x00, 0x50, 0x00, 0x00, 0x00, 0x02, 0x00, 0x00, 0x00,
  0xff, 0xff, 0xff, 0xff, 0x05, 0x00, 0x00, 0x00, 0x80, 0xfc, 0xff, 0xff,
  0x34, 0x00, 0x00, 0x00, 0x73, 0x65, 0x71, 0x75, 0x65, 0x6e, 0x74, 0x69,
  0x61, 0x6c, 0x2f, 0x64, 0x65, 0x6e, 0x73, 0x65, 0x5f, 0x32, 0x2f, 0x4d,
  0x61, 0x74, 0x4d, 0x75, 0x6c, 0x3b, 0x73, 0x65, 0x71, 0x75, 0x65, 0x6e,
  0x74, 0x69, 0x61, 0x6c, 0x2f, 0x64, 0x65, 0x6e, 0x73, 0x65, 0x5f, 0x32,
  0x2f, 0x42, 0x69, 0x61, 0x73, 0x41, 0x64, 0x64, 0x00, 0x00, 0x00, 0x00,
  0x02, 0x00, 0x00, 0x00, 0x01, 0x00, 0x00, 0x00, 0x05, 0x00, 0x00, 0x00,
  0x0a, 0xfd, 0xff, 0xff, 0x00, 0x00, 0x00, 0x01, 0x14, 0x00, 0x00, 0x00,
  0x1c, 0x00, 0x00, 0x00, 0x1c, 0x00, 0x00, 0x00, 0x09, 0x00, 0x00, 0x00,
  0x68, 0x00, 0x00, 0x00, 0x02, 0x00, 0x00, 0x00, 0xff, 0xff, 0xff, 0xff,
  0x20, 0x00, 0x00, 0x00, 0xf4, 0xfc, 0xff, 0xff, 0x4c, 0x00, 0x00, 0x00,
  0x73, 0x65, 0x71, 0x75, 0x65, 0x6e, 0x74, 0x69, 0x61, 0x6c, 0x2f, 0x64,
  0x65, 0x6e, 0x73, 0x65, 0x5f, 0x31, 0x2f, 0x4d, 0x61, 0x74, 0x4d, 0x75,
  0x6c, 0x3b, 0x73, 0x65, 0x71, 0x75, 0x65, 0x6e, 0x74, 0x69, 0x61, 0x6c,
  0x2f, 0x64, 0x65, 0x6e, 0x73, 0x65, 0x5f, 0x31, 0x2f, 0x52, 0x65, 0x6c,
  0x75, 0x3b, 0x73, 0x65, 0x71, 0x75, 0x65, 0x6e, 0x74, 0x69, 0x61, 0x6c,
  0x2f, 0x64, 0x65, 0x6e, 0x73, 0x65, 0x5f, 0x31, 0x2f, 0x42, 0x69, 0x61,
  0x73, 0x41, 0x64, 0x64, 0x00, 0x00, 0x00, 0x00, 0x02, 0x00, 0x00, 0x00,
  0x01, 0x00, 0x00, 0x00, 0x20, 0x00, 0x00, 0x00, 0x96, 0xfd, 0xff, 0xff,
  0x00, 0x00, 0x00, 0x01, 0x14, 0x00, 0x00, 0x00, 0x1c, 0x00, 0x00, 0x00,
  0x1c, 0x00, 0x00, 0x00, 0x08, 0x00, 0x00, 0x00, 0x60, 0x00, 0x00, 0x00,
  0x02, 0x00, 0x00, 0x00, 0xff, 0xff, 0xff, 0xff, 0x08, 0x00, 0x00, 0x00,
  0x80, 0xfd, 0xff, 0xff, 0x46, 0x00, 0x00, 0x00, 0x73, 0x65, 0x71, 0x75,
  0x65, 0x6e, 0x74, 0x69, 0x61, 0x6c, 0x2f, 0x64, 0x65, 0x6e, 0x73, 0x65,
  0x2f, 0x4d, 0x61, 0x74, 0x4d, 0x75, 0x6c, 0x3b, 0x73, 0x65, 0x71, 0x75,
  0x65, 0x6e, 0x74, 0x69, 0x61, 0x6c, 0x2f, 0x64, 0x65, 0x6e, 0x73, 0x65,
  0x2f, 0x52, 0x65, 0x6c, 0x75, 0x3b, 0x73, 0x65, 0x71, 0x75, 0x65, 0x6e,
  0x74, 0x69, 0x61, 0x6c, 0x2f, 0x64, 0x65, 0x6e, 0x73, 0x65, 0x2f, 0x42,
  0x69, 0x61, 0x73, 0x41, 0x64, 0x64, 0x00, 0x00, 0x02, 0x00, 0x00, 0x00,
  0x01, 0x00, 0x00, 0x00, 0x08, 0x00, 0x00, 0x00, 0x86, 0xfe, 0xff, 0xff,
  0x00, 0x00, 0x00, 0x01, 0x10, 0x00, 0x00, 0x00, 0x10, 0x00, 0x00, 0x00,
  0x07, 0x00, 0x00, 0x00, 0x28, 0x00, 0x00, 0x00, 0xf4, 0xfd, 0xff, 0xff,
  0x19, 0x00, 0x00, 0x00, 0x73, 0x65, 0x71, 0x75, 0x65, 0x6e, 0x74, 0x69,
  0x61, 0x6c, 0x2f, 0x64, 0x65, 0x6e, 0x73, 0x65, 0x5f, 0x32, 0x2f, 0x4d,
  0x61, 0x74, 0x4d, 0x75, 0x6c, 0x00, 0x00, 0x00, 0x02, 0x00, 0x00, 0x00,
  0x05, 0x00, 0x00, 0x00, 0x20, 0x00, 0x00, 0x00, 0xce, 0xfe, 0xff, 0xff,
  0x00, 0x00, 0x00, 0x01, 0x10, 0x00, 0x00, 0x00, 0x10, 0x00, 0x00, 0x00,
  0x06, 0x00, 0x00, 0x00, 0x28, 0x00, 0x00, 0x00, 0x3c, 0xfe, 0xff, 0xff,
  0x19, 0x00, 0x00, 0x00, 0x73, 0x65, 0x71, 0x75, 0x65, 0x6e, 0x74, 0x69,
  0x61, 0x6c, 0x2f, 0x64, 0x65, 0x6e, 0x73, 0x65, 0x5f, 0x31, 0x2f, 0x4d,
  0x61, 0x74, 0x4d, 0x75, 0x6c, 0x00, 0x00, 0x00, 0x02, 0x00, 0x00, 0x00,
  0x20, 0x00, 0x00, 0x00, 0x08, 0x00, 0x00, 0x00, 0x16, 0xff, 0xff, 0xff,
  0x00, 0x00, 0x00, 0x01, 0x10, 0x00, 0x00, 0x00, 0x10, 0x00, 0x00, 0x00,
  0x05, 0x00, 0x00, 0x00, 0x24, 0x00, 0x00, 0x00, 0x84, 0xfe, 0xff, 0xff,
  0x17, 0x00, 0x00, 0x00, 0x73, 0x65, 0x71, 0x75, 0x65, 0x6e, 0x74, 0x69,
  0x61, 0x6c, 0x2f, 0x64, 0x65, 0x6e, 0x73, 0x65, 0x2f, 0x4d, 0x61, 0x74,
  0x4d, 0x75, 0x6c, 0x00, 0x02, 0x00, 0x00, 0x00, 0x08, 0x00, 0x00, 0x00,
  0x04, 0x00, 0x00, 0x00, 0x5a, 0xff, 0xff, 0xff, 0x00, 0x00, 0x00, 0x01,
  0x10, 0x00, 0x00, 0x00, 0x10, 0x00, 0x00, 0x00, 0x04, 0x00, 0x00, 0x00,
  0x34, 0x00, 0x00, 0x00, 0xc8, 0xfe, 0xff, 0xff, 0x27, 0x00, 0x00, 0x00,
  0x73, 0x65, 0x71, 0x75, 0x65, 0x6e, 0x74, 0x69, 0x61, 0x6c, 0x2f, 0x64,
  0x65, 0x6e, 0x73, 0x65, 0x2f, 0x42, 0x69, 0x61, 0x73, 0x41, 0x64, 0x64,
  0x2f, 0x52, 0x65, 0x61, 0x64, 0x56, 0x61, 0x72, 0x69, 0x61, 0x62, 0x6c,
  0x65, 0x4f, 0x70, 0x00, 0x01, 0x00, 0x00, 0x00, 0x08, 0x00, 0x00, 0x00,
  0xaa, 0xff, 0xff, 0xff, 0x00, 0x00, 0x00, 0x01, 0x10, 0x00, 0x00, 0x00,
  0x10, 0x00, 0x00, 0x00, 0x03, 0x00, 0x00, 0x00, 0x38, 0x00, 0x00, 0x00,
  0x18, 0xff, 0xff, 0xff, 0x29, 0x00, 0x00, 0x00, 0x73, 0x65, 0x71, 0x75,
  0x65, 0x6e, 0x74, 0x69, 0x61, 0x6c, 0x2f, 0x64, 0x65, 0x6e, 0x73, 0x65,
  0x5f, 0x32, 0x2f, 0x42, 0x69, 0x61, 0x73, 0x41, 0x64, 0x64, 0x2f, 0x52,
  0x65, 0x61, 0x64, 0x56, 0x61, 0x72, 0x69, 0x61, 0x62, 0x6c, 0x65, 0x4f,
  0x70, 0x00, 0x00, 0x00, 0x01, 0x00, 0x00, 0x00, 0x05, 0x00, 0x00, 0x00,
  0x00, 0x00, 0x16, 0x00, 0x18, 0x00, 0x14, 0x00, 0x00, 0x00, 0x10, 0x00,
  0x0c, 0x00, 0x08, 0x00, 0x00, 0x00, 0x00, 0x00, 0x00, 0x00, 0x07, 0x00,
  0x16, 0x00, 0x00, 0x00, 0x00, 0x00, 0x00, 0x01, 0x10, 0x00, 0x00, 0x00,
  0x10, 0x00, 0x00, 0x00, 0x02, 0x00, 0x00, 0x00, 0x38, 0x00, 0x00, 0x00,
  0x84, 0xff, 0xff, 0xff, 0x29, 0x00, 0x00, 0x00, 0x73, 0x65, 0x71, 0x75,
  0x65, 0x6e, 0x74, 0x69, 0x61, 0x6c, 0x2f, 0x64, 0x65, 0x6e, 0x73, 0x65,
  0x5f, 0x31, 0x2f, 0x42, 0x69, 0x61, 0x73, 0x41, 0x64, 0x64, 0x2f, 0x52,
  0x65, 0x61, 0x64, 0x56, 0x61, 0x72, 0x69, 0x61, 0x62, 0x6c, 0x65, 0x4f,
  0x70, 0x00, 0x00, 0x00, 0x01, 0x00, 0x00, 0x00, 0x20, 0x00, 0x00, 0x00,
  0x00, 0x00, 0x16, 0x00, 0x1c, 0x00, 0x18, 0x00, 0x00, 0x00, 0x14, 0x00,
  0x10, 0x00, 0x0c, 0x00, 0x00, 0x00, 0x00, 0x00, 0x08, 0x00, 0x07, 0x00,
  0x16, 0x00, 0x00, 0x00, 0x00, 0x00, 0x00, 0x01, 0x14, 0x00, 0x00, 0x00,
  0x20, 0x00, 0x00, 0x00, 0x20, 0x00, 0x00, 0x00, 0x01, 0x00, 0x00, 0x00,
  0x3c, 0x00, 0x00, 0x00, 0x02, 0x00, 0x00, 0x00, 0xff, 0xff, 0xff, 0xff,
  0x04, 0x00, 0x00, 0x00, 0x04, 0x00, 0x04, 0x00, 0x04, 0x00, 0x00, 0x00,
  0x1d, 0x00, 0x00, 0x00, 0x73, 0x65, 0x72, 0x76, 0x69, 0x6e, 0x67, 0x5f,
  0x64, 0x65, 0x66, 0x61, 0x75, 0x6c, 0x74, 0x5f, 0x64, 0x65, 0x6e, 0x73,
  0x65, 0x5f, 0x69, 0x6e, 0x70, 0x75, 0x74, 0x3a, 0x30, 0x00, 0x00, 0x00,
  0x02, 0x00, 0x00, 0x00, 0x01, 0x00, 0x00, 0x00, 0x04, 0x00, 0x00, 0x00,
  0x02, 0x00, 0x00, 0x00, 0x20, 0x00, 0x00, 0x00, 0x04, 0x00, 0x00, 0x00,
  0xf4, 0xff, 0xff, 0xff, 0x0e, 0x00, 0x00, 0x00, 0x00, 0x00, 0x00, 0x0e,
  0x0c, 0x00, 0x0c, 0x00, 0x0b, 0x00, 0x00, 0x00, 0x00, 0x00, 0x04, 0x00,
  0x0c, 0x00, 0x00, 0x00, 0x09, 0x00, 0x00, 0x00, 0x00, 0x00, 0x00, 0x09
 
};

#endif //GAS_MODEL_H